00111111001011010001010000010110
00111111011111101000100111000000
10111110111001111101000001100100
10111110101100100000010110001100
00111100110110011111000010101111
00111111101100001001111000011001
10111110100110111111011011100000
10111111000110111111011011001000
00111111111110100111101010000101
10111101111100011000100101011110
00111111101101000000000010011110
00111111100000101001010100110010
10111110101001000011100011111011
00111101111110010100100011110111
10111110110111100010110010101100
10111111000100100110010100100011
00111100011011110100011111001010
10111101100110000110111100100011
00111101101100011100100101101011
01000000001100110110111100101011
00111111111100011100111000000000
10111101011010010001010011101111
00111111110111100010101100100011
00111111010000011011110000100010
00111111001100011011001000111000
00111111110101100000111101010100
00111110001001010001011110100101
00111110111010101100101011100000
00111110001000010001100110100010
00111111100011110100011011011110
00111110000100011110110110110111
00111111000110101111011110000111
10111110101001100110111101110001
10111110101111100111100110100011
10111110100100101100001111001101
10111110100000111000001000000000
10111110110101000110100111010010
10111110010001000011111111101001
10111110101001100000011110001101
00111111101100110101010000011110
10111110110101110111110100010001
00111111000100100011100111001010
10111110101101010001101101101111
00111110010110010110110100100111
00111111001100100000000010010111
10111111000111111001001100111110
10111110110011010100010100000111
10111110101011100100011001111010
00111101110011000100111010010001
00111111100111001010110110111100
10111111000010001011111011101110
10111111001011001001001111000010
00111111100010100000010100010100
00111101000100011111111000111100
00111111100000011110101101100011
00111111010001000110111100010110
10111110101100001100011010000010
00111111000101111010110111100010
00111110110011111110111111101011
00111111000100100110000101101001
00111110111011101101011101000000
10111110001000000001001010111011
10111111000100110011000000101111
00111111001110111111000010000011
00111111101001010010011110011011
00111111101011100010111001010101
10111110110110011010111101100101
00111110100000001001100000001100
00111111000100001100000110111000
00111111111011100001010011101010
00111110111110111010110110111010
10111101111111110011111000000101
00111111101001001011100011111101
00111101111110011110110111000100
10111110001100100010100011001101
01000000000000011001000101101110
00111110110011011100100100001101
10111100111001010011001001000111
00111111100000100100001100111001
10111111000101110001011101010100
10111110101001001001101101101100
00111111000110001100010100101011
10111110100011010111011000111011
01000000000111101110100110001001
00111111101010100001111110010010
00111101011000110000101110000110
00111101110001011011011010100101
00111101111011100011100110101101
00111111011111100001110000010001
00111111110011001111011011001111
00111111000001110101111001000000
10111110000001010110111001001111
10111110100011010110111000101000
10111110101000011110111000100111
00111110101100111100100001011001
00111111101000111000010111001101
10111110010101100011110010110111
10111111000011100101011101000110
10111111001100010001100001100110
00111111011010101111011101101001
00111110111110100000011110011001
00111111010001011000011111101010
00111111000000101110111011101010
00111111100001011010001001011001
00111110100000001001111111010111
10111101011111111011101010011110
10111110010101100100010111100111
10111110010110110100001100111001
00111111111000000100011010010001
00111110001011110100000010001011
10111101101010111000000100100100
00111111001101111011111110110101
00111111000001110111010101110000
00111110011101110011110001111010
00111101110000010110111111100111
10111111010011000100000111010101
00111111001100010111101110111000
10111100111011000011000010100000
00111111100111011100010111111100
00111110011100000001100010000001
10111110110011000001100110010011
10111110101111000001111001011111
10111110101000111000101010001010
00111111100011001110001001000110
10111110010100000000111011101100
00111111000010110010101011100111
10111110111001010001110101001101
00111111110110010011101110010100
00111111010110011101000111100010
00111111111001001001101111000111
10111101100110100010111010000110
10111110110011001010010111111010
00111111110011010110101110110001
00111111000011010100011110001101
00111101110000010010100110010010
10111100111000110100001110110001
00111111011000010100011011100001
10111110110101000110001011111010
00111111100101010100110101000010
00111111110010111111011010110001
00111111000010100010001001001101
00111101101101110000011000111011
10111110100011110001110100110101
00111110001000001001100011110000
10111111100100101001100111101010
00111111011100000000001010011011
00111111011010001001001100011101
01000000000111011110011110110101
00111110100100010001000100000101
00111111011110000110001101100010
00111110111110000011000001000111
10111111000000100110110100111010
00111110110001010010100110110110
01000000000111011101001001101010
00111111011010100100110111011100
00111111100010101100111000010111
10111110010000101000001010100011
00111111001001001101001110111100
10111110100100011100101000001110
00111111110110110101110011100100
10111110011001001110110110111101
00111111000011000100010101110010
10111110010110000101111011001011
00111110110000101111010001001001
00111110010001000101111100011001
00111110100000111101111101101010
10111111011111000101110101011111
00111110011010010001101111001101
10111110101111010110100010111000
10111101000011101000110001111001
00111110110011000001011011110100
10111111001101000001011001010100
00111111101011000111110010000000
00111110110010101001111000001111
00111100110001101110011101000011
10111110110011000100000100011000
00111110100010001000010000001001
00111111111010100010111011000000
10111110100011000111110000110100
00111110010011110110000100100111
00111111000101110001010111010011
10111111000100100011000001111111
00111111010111000000001000110111
00111111010101000011111110000010
00111101101001111011001100001111
10111110101001110000100011111101
00111110111010000000101010001111
00111111100111110010011111010110
10111101100101000011111000111010
00111110111110010010010001100011
10111110010000110110000010110001
00111110110111101001001110101110
00111111011101010111011010011010
01000000000111100010110010011011
00111110010101011000111111110000
00111110100110011000101000000100
00111111001100001110111110110101
00111111110011110110110000011101
10111110100000011110010011101100
00111110100001010111110100000010
00111110110000010111110001100000
10111101000011010110011101110100
00111110111000110011101000110110
00111111101101101111001111010011
00111110100011000101101001110011
00111110101101100100001111000011
00111110010101111110100001000101
00111110000101000110011111101000
10111110111100010011100000000001
01000000000000010011111101110000
10111110100111100100100101111101
01000000000010001110100000000110
01000000001000010110010010111110
00111111001110110011001100000111
00111111001110111001111111010110
10111110100110011101101011110001
00111110110001010001100110000111
00111111110100111111010000010111
00111111001100101001111100110010
00111111000001011110110111001000
00111101101100010111001011010110
10111111000101101111000101101011
10111111100100000111100011000000
00111111110001000010011100000011
10111101101110010011111111001011
00111101000100011110110011001001
10111110101101011110000100110001
00111110101001110000010111001000
10111111100011001001111001001001
10111110010101101111100000111101
10111111000001110011110010111100
00111111010000110111111111101110
00111111000011111010010110110000
10111110001100011100010100110011
00111111001111110001011100110111
00111111000000010010011010110010
00111110101100111011010100101100
10111110000011000110010000111000
00111111000001110111100000000110
00111110100110111111110111001110
10111110100100101101011110000100
00111111101010011000101000101111
10111101111010000110110011011010
10111110010101101111100111101101
00111111001001011011010111111010
10111101111111101101001110100110
00111111011111110110001101011000
00111111101001000110000101111001
00111111101001001100000110110101
10111110111001010010001101101000
10111110010110010101111110111111
00111101000001111011001100111111
00111111000001111100001101010010
10111110011101010100100010101111
00111110011001010001100011111001
00111110100100000110001011111000
00111110100010101011101011101000
00111111000011010101110101001111
00111110101100001010011101001101
00111111000011101100111111101001
00111110101111001110001010010100
00111111110101001011100000001001
10111110100011111001011011011011
10111100110000000110110000000110
01000000010000010111000000110000
10111110100111010011011001000010
10111111000101010110101111111001
00111111100000011011000010011000
00111110100110001100100100100010
10111101111110110111110101111111
10111110001001111011100111101010
10111111011101001101010100000000
10111111001011000001000100011110
00111111000110111111010011101110
00111100100111110100111101111110
00111111111111100001100111000011
00111111101111000010100000111111
00111110110100001101000001101000
00111111100011010010110010111111
00111111000010000000100101110010
00111111101010100011001001111111
00111111110001001101010000100001
00111110001111001010110100110000
10111110011000111000010111011011
10111111001100001010101101101011
10111111010011001011111000101001
00111111001011000000011101010001
00111111100101011100000111000101
10111110110100011011100011101001
10111110011001111111000101111010
00111111001100000111001001101011
00111110110000110011011101110011
00111110101110101000100110011101
00111111001110100011000010110010
10111110000111101111110100010101
00111111110011001101111111001011
00111111000000011111100010001101
10111110100110011110110011000101
10111110000111011000101000100111
10111110011010110110011110010100
00111111111100100111110111101100
10111110111111101011100001000100
00111101100001101110010111110000
00111110111100011101110111111111
10111110110111110100010101011000
00111111111100001101101011110000
10111100000111100110000101101010
00111110111001001000011100011011
00111110110010110101001110111111
10111101101111100011011110101010
10111110100011111010100101101011
00111111101010010100001001010101
10111101101011010111101100011011
00111110110110000111101010101001
10111111000111110001000100000010
10111101010000101000010111011111
00111110000110010001101010101000
10111110100011110100000100111101
00111110111001010110111001000111
00111111100110000011010100011100
00111101111011001001110001011100
00111111101111001001001110010101
10111110010000000000011110010100
00111110110110101110101010000111
00111110000111100011110010100011
00111110000010100111001110110100
10111100101100011111110011000101
10111110110001101100101000111011
00111111000000101010011110111111
10111101111000000111101101011111
10111100111010100010000100110011
01000000000000101010011100010011
00111111010011110111101001101001
00111111100101011110011101011010
00111110100000010111111111000111
00111111011110101010010000101011
00111110110010101110100001010111
00111110001111111110110101001011
00111110110110101001101000001110
01000000001010000101101111100101
01000000000101010010100110110111
00111110000100111000110001011011
00111111110111101110111011010111
00111110111010110111101101111011
00111111101000001011000011010011
00111111110010100110000000010011
10111101001100011111101100000000
10111111011110101110011101000101
10111010111100010000100110010001
00111111000011111001111000001111
10111101101010110111110000000001
00111111011011110000101101111110
00111111010110011001101111100010
10111110110111001111101100011100
00111110111101001011000001110111
00111110001000010000001010100101
00111110101011111000010111000101
00111110111101000110001000111010
00111101101001010101100011100011
00111110101100110010011010001001
00111110011111100001111101101001
00111101010011111011101001011110
10111101000111011110111101100000
10111110000101011110010000100110
00111110111011000101010100010011
00111110000010101101011111101101
10111110101100011000000110100001
00111111111000100011110110011111
10111111011101100010011110101100
00111111111111010111100010010000
00111110101101111001001100010101
00111110110010101100111001111010
00111111100100101000001000001101
00111100100010111010111100100000
00111111100100101101101100001111
00111111000101000001100000100000
10111110010001001110010100000110
00111101111011100100001101110000
10111110110100100100101111101011
00111111001101110011111101001010
00111111011010000110110101101000
10111110110000100100001011011110
10111101010010000110001011011110
00111110000001010100100010000011
00111111100000100100010100010010
00111110111001010010001010011111
00111110011111111110101010011110
00111111011011000110010000001101
00111110100000101100010100111111
00111111101101110101001010010000
00111110110001010111110011100100
10111110101101100000011101101110
00111111101110100111100011011001
00111110010101100110100110111010
00111110111010010110001010011000
01000000000010100011111100000000
00111110110000011011111011000011
00111111011110011101001111100001
10111110011000000110110111111111
00111101001100010111010110010010
00111100010101010011000111001010
10111111011010010100100100111111
00111110101011110011100101001001
01000000000000110110111001010100
00111111110100111010000011001000
00111111011000101100110000000001
00111110101100000110001111100011
00111110010000001111001001000001
00111111011011001100011110010101
00111111111010000001011010101101
00111110100011110000001110001000
00111111100011001110001000011001
00111110110010000110011000001100
00111110111011001000101110100110
00111110110011111101110110001100
00111111010100111101111001110110
00111110111010001011000001101110
10111111010100000011111110110010
00111110111000011111101110001110
00111111011001111011010100100001
00111110001000101000010011010010
10111110111100000101010110000000
10111110110111000010111011001100
00111111100001111101010001111011
10111101010111000101000101110001
00111111000010110101000111101011
10111101111110011011110000101010
10111110010010000110001111011001
00111111101100100100011001111110
10111111100100101110111101011011
10111010110100000001011110011111
10111110000101001100101010001001
10111111000001011000110110011111
01000000000101110000011000101101
00111101110001101001011101010101
10111100110100111011001010000000
00111111001010110000101110001001
00111110001001001111000010011101
00111111100000100101000001001000
00111110111000110000100110101111
10111110101001101000011010100010
00111101111110100110101000000011
00111110110100001101011110010110
00111111000000111100110010001000
00111111000000010110100100100000
10111101011111110010100110001000
10111110011110111101011111110100
00111110101110110000101000000000
00111111101001001000011100010010
00111111010101110001100101010100
00111100111110001110001011001111
00111110100000010001101001010110
00111110000110101100110010011011
00111111010110101011111000000101
10111101110100000001011010010001
10111101101111101110010111011010
00111111100101100100010000111111
10111111000001000011101001111010
00111110100001010101111010110111
00111111100100001101110101110011
10111110100110001101100111001011
10111111001001010111101010111100
00111110011010010011011101010000
10111110110001001001110100010001
10111111011101110111110100111111
00111111000110010010101110011000
10111110101011111010101001001110
00111111111010011001101111011110
00111111110001011000001110110110
00111111011001000100100100100010
00111110100000001101000110100001
00111111100010000001101110100001
00111111001110000101100010000110
01000000000000011011110100110101
00111111011111011111110110000010
10111110100111011010111101111011
00111110100110001010000011011101
00111110111110010111100101111010
00111110110001001001100100001000
01000000000100011110110010111011
00111101001111010001111110011011
00111111011000010000111111000000
00111111011001100101001111011010
00111101111011011111010100110011
00111111000010010110100111010011
10111110100001101100111110011101
00111110001011010000011001001000
00111111011101100001111010000011
10111111000010110010101100010000
10111110101111111101011011000111
00111111100010001110100111000111
10111110111111001010111111000101
00111111101110111101001101110100
00111110110011110111100100001010
10111101110100111110111100100100
00111111011100110001111001011110
10111101100110111101101100000110
00111111101110110010001110110111
10111111001011001010011100100011
00111110010000100100111100100111
00111111011100011101010001101110
00111110110110100001000101111111
00111111100010000001001100100101
00111111010111011010000110011101
10111110101101101010110011110000
00111110101010100001011011001010
00111111001101001101101011000111
00111111011001001110010111100011
00111111100011110110101001100001
10111110110100101010011100100111
10111111000111100010111110100001
00111111100001111101000011010110
10111101001001000101001101111010
00111111011101000101111001001010
00111101001011000000100011000000
00111111011111111000100010010101
00111111010011100000001110000001
00111111101010101000110011001000
00111010110011010001111100100010
00111110001011110111110101110000
00111111111100001100111110100010
00111110001010110000001001001011
10111101001100001100010101001011
00111111101100011100101111110110
00111110010111100110110011010100
00111110101110111000101000011110
10111110111100110111110110001001
00111111000010111001000011111001
00111110110101101011101001011101
00111111001110001101111001011101
10111110100111110100011000111011
01000000001010010011011110111111
00111111000101100101000001110111
00111101100100001001110000111101
00111101110010100111111111000110
00111111010110001001000011101110
00111111101101100100100100001010
00111111101111010011111101101010
00111110101111011010101100000101
10111111011010001011011110011011
10111110100001011001010000111001
00111111010001100000111001110001
10111111100011111100110000001111
00111111111111001000111001101111
00111110001111001001110001011101
00111110111110101001110101001111
10111110011011110100001001111011
00111110000111111011101111100011
00111110000011111000000001111011
10111111001111000010100100110001
10111110010110001110101110101100
10111101011110101001001100001110
00111110101010010011101110101100
00111111000010001111011001111111
10111111010111011001111100000101
10111110100010101010101111011001
00111110111101011111111011110111
10111110110011110100101010011101
00111110111101111110111101011101
10111101100001010111100111011111
00111110101001011000000011011000
01000000000001011001001111110010
10111111001011101000111110001111
10111110000010001100010101111111
00111111101000111010100101000010
10111110111000110001110011111101
00111111110010001110111010110100
00111111100011000110011000110000
10111110100011101100011000111011
10111110110111101100101111100001
10111111010000110110100110111010
00111111011111001001011001110000
00111111011010001100100010101010
00111101001010100110100001001101
10111111000001110011100010010011
00111110011001011110101000001000
00111101010010000010010100100011
00111111111011001100110111011110
10111101001000011101011110100000
10111110110000101011011100010100
00111110110100001000000011010101
00111111110010011100111000001101
10111101110111001110001011010110
10111111010000001101001010001111
00111111010011110101011010101101
00111110111101011011011110101101
00111111100010000011010111111000
00111111011100110000001000010000
00111110101101010110000001000010
10111110011000001101111001111101
00111101100000011111000010001101
00111111000110110110110011111001
00111110100101100101100011000111
00111110101010001010000100010100
00111110111111100011001011011001
00111111111011010111111111000101
00111111010111010110010111111110
10111111010011000011010010011011
00111111101111001001010100000000
00111111100011110110001101001010
00111111010101101101000011101010
00111111101011100110000101100000
10111111010100011110000100000001
10111110100011001000001111110011
00111110000010010011110101000010
10111111000001101110001010111110
00111111010101000110001110001100
00111111111111001011011111001010
10111110000111010010101100100001
00111110101000100010110100010111
00111100100101010000011000011001
00111111100000000110001011011110
10111110100000011011110101110011
10111110010110110100000001100100
00111101001110111101001111011111
00111111110110110011001101011000
10111101011001100100001111011010
00111111000000010111010111001000
00111111010011101110101111110101
00111110010100010010111101100010
00111111001000111101010001010111
10111110110110101111100111001011
10111111000011111001000010010011
00111110100011100010101001010010
10111110111001011011010000101011
01000000000010011010001001011110
00111011101000010101110001001101
00111110100000111101011111001011
01000000000101101010000100010001
10111101011101101111010100101001
00111111001111010100111111011000
00111111001100000111111010010001
00111101100011011111000010000010
10111111001101110010100000111000
10111110101100001000000010011000
00111111100001100010100101110001
00111101000100011010110011100111
00111110000111011100011001011001
00111111000001001111110000101111
10111101000011000101000011110101
