1011011011101101
0011010010101010
0011000000000110
0011100001111100
1011000001000110
0011011011011101
0011001111010000
0011010000010001
0011000111000011
0011100100011101
1010111110101101
1011010010101000
0011100100000000
1010101000001001
0010110101011101
0011100000000010
0011010110010110
1011100000100100
0010100001011011
0011011111010010
0010101010110111
0011100000110111
1011000111001101
1011011101110000
0011000111100010
0011010101111111
1010101110010010
0011010011100010
1011010001000111
1010110010001100
1011100111110001
0011000000000000
1011000011100001
0011001000000011
0010010000100011
0011000011000100
1010110000100100
0011010110101110
0011010100000000
0010011100110010
1011001010001000
1011000100011110
0011011111100111
0011010111110010
1010111101111100
1010110010101100
1010101000110010
0011101001110011
0011100110000111
1010101101110100
1011010100110100
0011100101101110
1010101010101010
0011001101111001
0011001111000100
0011011010000011
0011011100001101
0011011110001111
1011010001100111
0011001010011011
0011010011101000
1011101011001010
0011001000100111
1010000110000011
0010011001000101
0011101100011010
0011010001110101
0010110001111100
0011010100101100
0011010110100011
1011000111101001
0011001011000010
0011001100100100
1011100001110001
1011001110100001
0010010001101010
0010100110000101
0010100011110110
1011100010010100
1011011111110101
0010111001101101
0011011111010010
0010100010110101
0010111010101110
0011100010000100
0011010011001011
0011100001000011
1011000010000111
0011010101011100
0011100101110011
1011000000011010
0011011111111011
0011010001010000
1011001100100011
1011011010100100
0011010110000111
1011010001011111
0010110000111010
0011010001010000
0011000011011000
0011100000010111
0011010011110000
1011000111100111
0011001111011110
0011000010010011
1010100100010111
1011000010100101
1010111000101010
0010010000001100
1010011101110100
1011100000001011
1011100000110011
0010111000101010
1011100110110101
1011010100101000
0010111110001010
0011001101010010
0011100010100110
1011001111100011
1011011000000110
0011100110110001
1010111100101010
1011001010010000
0011011011000100
1011100010001101
1011000100011000
0011010110100011
0011001100010001
0011010100000101
0011001100000111
0011100000110010
0010101101011001
0011001001001001
0011100011001110
0011100100101000
0011000010100101
1010111100101011
0010110000010000
1010110100000010
0011100011010100
0010011000000011
1011010000001101
1001111110101110
0011001011111100
0011010000111111
0011011110001101
0011001101100111
1010110101110011
0011010001101100
1010101001000001
1011010011011010
1011100000100010
1011010011001110
1010111011110011
1011100011011001
1011001001011011
0011010000011010
1011010110110100
0011101000000101
0011010110100100
1011000100110010
0011010010111110
0010101000001011
1011011000101110
0011010110010000
0010110011110110
0011110100001011
0011101101100100
0011000011011111
1011010111010001
0011010111000000
1011010110010110
1010111110010010
1011011101001110
1011101100100011
0011100101000010
0011001000110111
0010111001001110
0011000111000010
1011100111001101
0010110100000101
0011010011000110
0010001010101011
0011010101101000
0011101110010110
1011001001111101
0011011101110110
0011010000111011
0010100000111010
1011000101000001
0011100010111010
1010100011100010
0011000100111011
0011000100110001
0010001101000001
1010111000100001
1011001101000111
1011000110111100
1011010111011001
0011110010000100
0010011010011111
1011100001000000
0011011111001111
0011011101001010
1010100100001100
1010111110110110
0011011000111001
1010101000010110
0011100011110100
0011011111111001
0011100100110011
0011001001100000
0011010001100100
1011000110101011
0011000011001011
0011100101001000
0011100000101010
0011011001010001
0010110111010000
0011001111011100
1010100100110011
0011010101101110
0010110011111100
0011101101101111
0011010110000010
0011100000001011
0011001001111011
1011000101100001
0011000001101001
0011010111010111
0011010010111000
0011100000101000
0010110111001110
1011011111101101
1011010100100000
1011100011010110
1011011001111110
1011100000000100
0011010000110100
0011000001000011
0011100010101100
0010110100101110
0001110110110011
0011001010101111
0010000110011010
0011100101010110
0010111010110000
0011000000010000
1011000000100111
0011001001011011
1011001001101011
0011000000111000
0011010001111000
1011011010101010
1010111011011011
1011100010111110
1011011110110100
0011001111000001
1011001011010101
1011000110001100
1010110101000110
0011100000101101
0011011001100110
0011100000000000
0011100111001000
1001001101110010
1010100011101101
1011100010011110
0010000000000110
0011100000110101
0011000111101010
1011010110100001
1011010100000001
0010111101111000
1011100000110000
0011010011111100
0011000100110111
1011001001010001
0011011101011001
1011100111011011
0011001110111000
0011010101111011
0011000101110101
0011101001100100
1011000000000111
1011000001010110
1011100100001100
1011000100010011
1011100111111100
0011010011101001
1011011001100110
0010110100101111
0010011111011000
1011010110110001
1011001101001000
0010110010011111
0010100000001100
0011000001000101
0011010000100000
1011001000101101
1011001000110011
0011100100110010
1011100100111011
0011010010011111
0011010100100011
1011110001011101
1011001000011100
0010101110010000
1011010111111010
0011100011101100
1011011111110101
1011100111100101
0011100000111100
1011010101010011
1011000001110011
0011010111001101
0011100110101110
0011100111111100
1011100110010010
1011001011001000
0011101000000100
0011100111000111
0010100100001100
0010110101000000
1011100101001110
1011010101000101
0011100010001001
0011100100011000
0011011011001110
0010111011101111
1010010101101111
0011010011110110
0011010100110100
1011001110001100
1010111000001110
0010100111101100
1011010011010001
0010100100011101
1010110101110010
1011000110100100
0011011001001110
0011000100010010
0011010011100010
1011100100010101
1011001001011101
0011101101011100
1010111100110010
1011010001001101
0011010000001111
1010110001100010
1011011011011011
0011011110100011
1011011110111110
0010100110110011
0011010111110000
1010100100001001
1011010101111110
1011101001010101
0011010100100001
1011011100111100
0011010111101101
1010101011111110
1011101001110111
1011001101010100
1011000001100000
0011100011001101
1011100010011110
0010011101101111
0011011010010110
1011010101000110
1011010000101101
0011010010110001
1011000001011001
0011001110101010
1011010001111100
1010111010111100
0011101000101011
0010110101010111
0011000001010100
0011010110000011
0011011010100100
1011100010011101
0011011000100001
0011011110110000
1011010000011110
0011100110110101
0011010010000000
1010111110101111
1011100001010100
1011001110110101
1011010111000110
0011011110010100
0011100101111111
0011010111011010
1010110111010111
1011011110110100
1011100101001010
0010111001001011
1011010110101100
0011011010000101
0010110110011010
0010111001010110
1011010011000110
0011101000000001
0011011011010000
0010101100011001
1010010010110110
0011100010100111
0011010000101010
1010101110011111
0010111101101111
0011011000100010
0011011010011101
1011000001000100
1010101000001010
0011000011001100
1011100000100100
1011010000110101
1011011001000011
1011011101101101
1011000000010010
0011010111000010
0011000001111110
0011100011000111
1011000111010010
0010101010110100
0011000111000001
0001111100111010
1011010111011110
1011101101010010
0010011101010010
0011100010100000
0011100001110000
0010111010100001
0010111000111001
1011000011101000
1011010100010010
0011010101000100
1011010011001101
1011011001010111
0011101101000010
0010111011111110
1011100000011010
0011001110100010
1011000010100000
0011001100011110
1011010101011000
0011001111100011
1011010000111101
0011011100110000
0011010100110011
1011100110111000
0011001111101000
0011010001111100
1010010000010010
0011011000011010
0010111111111111
1011010001100001
0010011011111111
0011000000010000
0011100100001101
1011011001101110
1011011001110001
1011010101001111
0011100100100011
1011011111010010
0011011011001001
1011010001010011
0011010101111101
0011011000000001
1011011111100001
1011010000110100
0011011010111000
0011100001010000
1010100110011111
0011000101010011
1011100000101000
0011000011101100
0011100111010010
0011000101001000
0011011000101000
1011010000000111
1011010111010000
0011001101001011
0011010000110110
0010000001011011
1010101001100100
0011000011101011
0011010100111110
0011010100001010
1011010101010001
0011000001001001
1010110100100010
0011000111101000
1010101110111011
1010111110101101
1011101001110000
1011010101111001
1011010001111010
1011010011011000
0011100000100110
0011101110110111
0011011001000001
1011000011001001
0011100000101100
0011001001001110
1011001100011000
0011010111101001
0011100010001000
0010100000110001
0011001111110011
1011000101001010
1010111100100001
1010010001111101
1011100101000111
1010101111011001
0011001111000100
0011010001001110
0010110000010000
0011000100110110
0011100101111000
1010110110010011
1010010101110011
1011100010100111
0011001001110001
0010010101101000
0011100010101100
0011010111001011
0011101001010101
1011100000001010
0011010010010010
0011010110000110
0011100101001110
1011010001111100
0011000000111110
1011010001011110
1011000010000110
0011010010011110
0011010110110100
1011011001101100
1011100001110111
1011010101011000
0011010011011100
1010000000010001
0010101110011011
0010011001011110
1010100010011010
1010001101111011
0011011010011100
0010011010101111
0011101000101001
1011001011000100
0011000011101011
1011100110010100
1010100100101000
1011100010000001
0010101011010111
1010111111101011
1011001111011101
0011011010001100
1011100001101010
0011010000110011
1011000101010000
0011000100000010
1011100100110010
0011100101001101
1011010000100011
1011001001000101
0011100110110101
1011010000100111
1010110010001101
0011001101110101
0010111010000101
0011010010110010
0011011010011110
1011001101101011
1011100001010100
0010100001010010
0011010100000010
1011000011001010
1011011000110100
0011110000010001
0011011110000011
1011010011100001
0011100100110001
1010110100010000
0010010100001100
0011011001100010
1010101110100001
0011001101010110
0011010111011100
0011100000111010
1011010100110010
1011000001000101
0001110011001011
0011101000010000
0011100100001101
1011001111110110
0010100101101110
0011010100000011
0010111111000101
0011100010101010
0011010001110010
0011100010011110
0010100110110011
0010111100101010
0011001000101100
1010010111101011
0010101000000001
0010111011101101
0011100100010001
1001111011001111
1011011000100000
1011010110110100
1011010000000000
1011011111100011
1011010010111000
0001111011000100
0001101010011001
0010100001111110
1010111110000100
0011011000000011
1011101100101110
1011011010110011
0011011001000000
1010110011001100
1011000111001000
0010100010100101
1011010000110111
0011110000110010
1011010110000111
0011100000110111
1010110110110000
1011010100001111
1011000110011111
0011011111010100
0011011110101101
1011011100101111
1010111101011000
1011010001100010
